/*
 * Copyright (c) 2021 Arm Limited and Contributors. All rights reserved.
 *
 * SPDX-License-Identifier: Apache-2.0
 * 
 */

#ifndef _TFLITE_MODEL_H_
#define _TFLITE_MODEL_H_

alignas(8) const unsigned char tflite_model[] = {
  0x20, 0x00, 0x00, 0x00, 0x54, 0x46, 0x4c, 0x33, 0x00, 0x00, 0x00, 0x00,
  0x14, 0x00, 0x20, 0x00, 0x1c, 0x00, 0x18, 0x00, 0x14, 0x00, 0x10, 0x00,
  0x0c, 0x00, 0x00, 0x00, 0x08, 0x00, 0x04, 0x00, 0x14, 0x00, 0x00, 0x00,
  0x1c, 0x00, 0x00, 0x00, 0x1c, 0x00, 0x00, 0x00, 0x4c, 0x00, 0x00, 0x00,
  0x68, 0x04, 0x00, 0x00, 0x78, 0x04, 0x00, 0x00, 0x98, 0x0e, 0x00, 0x00,
  0x03, 0x00, 0x00, 0x00, 0x00, 0x00, 0x00, 0x00, 0x01, 0x00, 0x00, 0x00,
  0x0c, 0x00, 0x00, 0x00, 0x08, 0x00, 0x0c, 0x00, 0x08, 0x00, 0x04, 0x00,
  0x08, 0x00, 0x00, 0x00, 0x0e, 0x00, 0x00, 0x00, 0x04, 0x00, 0x00, 0x00,
  0x13, 0x00, 0x00, 0x00, 0x6d, 0x69, 0x6e, 0x5f, 0x72, 0x75, 0x6e, 0x74,
  0x69, 0x6d, 0x65, 0x5f, 0x76, 0x65, 0x72, 0x73, 0x69, 0x6f, 0x6e, 0x00,
  0x0f, 0x00, 0x00, 0x00, 0x18, 0x04, 0x00, 0x00, 0x10, 0x04, 0x00, 0x00,
  0xf8, 0x03, 0x00, 0x00, 0xd8, 0x03, 0x00, 0x00, 0xc8, 0x01, 0x00, 0x00,
  0x98, 0x01, 0x00, 0x00, 0x90, 0x01, 0x00, 0x00, 0x88, 0x01, 0x00, 0x00,
  0x80, 0x01, 0x00, 0x00, 0x78, 0x01, 0x00, 0x00, 0x48, 0x00, 0x00, 0x00,
  0x34, 0x00, 0x00, 0x00, 0x2c, 0x00, 0x00, 0x00, 0x24, 0x00, 0x00, 0x00,
  0x04, 0x00, 0x00, 0x00, 0x42, 0xfc, 0xff, 0xff, 0x04, 0x00, 0x00, 0x00,
  0x10, 0x00, 0x00, 0x00, 0x32, 0x2e, 0x33, 0x2e, 0x30, 0x00, 0x00, 0x00,
  0x00, 0x00, 0x00, 0x00, 0x00, 0x00, 0x00, 0x00, 0xc8, 0xf2, 0xff, 0xff,
  0xcc, 0xf2, 0xff, 0xff, 0x66, 0xfc, 0xff, 0xff, 0x04, 0x00, 0x00, 0x00,
  0x04, 0x00, 0x00, 0x00, 0x4d, 0xfa, 0xff, 0xff, 0x76, 0xfc, 0xff, 0xff,
  0x04, 0x00, 0x00, 0x00, 0x20, 0x01, 0x00, 0x00, 0xaf, 0xf0, 0x0f, 0xb7,
  0xd6, 0xdb, 0xc6, 0x18, 0x42, 0x39, 0x4b, 0x41, 0xe3, 0x54, 0x13, 0x1d,
  0x0b, 0x14, 0x1d, 0x40, 0x1c, 0x1d, 0x47, 0x02, 0x19, 0x99, 0xab, 0xdd,
  0x0c, 0xf4, 0x1a, 0xc7, 0x91, 0xab, 0xe6, 0xbf, 0xb9, 0xd3, 0xc0, 0xc8,
  0xc4, 0xd0, 0xd5, 0xce, 0xd2, 0xe7, 0xbe, 0xdb, 0xb0, 0xec, 0x02, 0xc9,
  0xbe, 0xe4, 0xdb, 0x2a, 0x1f, 0x44, 0x10, 0x12, 0xd7, 0x30, 0xfa, 0xfe,
  0xf7, 0xfc, 0x10, 0x1a, 0x0d, 0x18, 0x0e, 0x11, 0x1b, 0xc1, 0xb7, 0xc5,
  0x02, 0x0b, 0x03, 0xac, 0x91, 0xc4, 0xe0, 0xb7, 0xdb, 0xd7, 0xc9, 0xd2,
  0xab, 0xad, 0xdf, 0xfa, 0xce, 0xe5, 0xd6, 0xbf, 0xaf, 0x0c, 0x15, 0xdc,
  0xe4, 0x06, 0xc2, 0x17, 0x24, 0x38, 0x29, 0x21, 0xd5, 0x4a, 0xf7, 0x17,
  0x04, 0x09, 0xfb, 0x51, 0x13, 0x00, 0x38, 0x00, 0x1f, 0x94, 0xdc, 0x94,
  0x08, 0x06, 0x03, 0xcb, 0x8b, 0x40, 0xd9, 0xa1, 0x0c, 0xdd, 0xdb, 0xf1,
  0xcb, 0xd1, 0xdb, 0xd0, 0xdb, 0xb2, 0xf5, 0xbc, 0xc7, 0x04, 0xfb, 0x9c,
  0xe7, 0xf7, 0xf3, 0x36, 0x35, 0x40, 0x2e, 0x07, 0x2b, 0x31, 0x19, 0x23,
  0xe1, 0x06, 0x18, 0x24, 0x2b, 0x18, 0x29, 0x05, 0x04, 0xc4, 0xb5, 0x0c,
  0x09, 0x10, 0x07, 0xa7, 0x81, 0x02, 0x0b, 0x0b, 0xe3, 0xf4, 0xee, 0xd2,
  0xbe, 0xeb, 0xe3, 0xd0, 0xe0, 0xe0, 0xdf, 0xcf, 0xc5, 0x05, 0x1b, 0xe9,
  0xc2, 0xd0, 0xe9, 0xfa, 0x42, 0x1f, 0x4f, 0x4a, 0xb8, 0x7b, 0xfb, 0x09,
  0xdf, 0xfd, 0x06, 0x41, 0x17, 0x01, 0x39, 0x0c, 0x1c, 0xae, 0xe2, 0xf9,
  0x0a, 0x0c, 0x01, 0x1f, 0xa2, 0x2a, 0xf4, 0x3f, 0x02, 0x0d, 0x11, 0xe0,
  0xae, 0xd9, 0xe8, 0xfc, 0xde, 0xeb, 0xf4, 0xdb, 0x98, 0x38, 0xfb, 0xc1,
  0xeb, 0xc6, 0xe2, 0x37, 0x49, 0x5f, 0x2d, 0xe6, 0xfd, 0x2c, 0x13, 0x16,
  0x15, 0x0a, 0x09, 0x2a, 0x25, 0x18, 0x3e, 0xff, 0x37, 0x91, 0xe3, 0xe7,
  0xed, 0xfa, 0xf7, 0xdd, 0xaa, 0x23, 0xe6, 0xf1, 0xd3, 0xeb, 0xef, 0xd1,
  0xfb, 0xef, 0xc8, 0xe0, 0xd1, 0xee, 0xe6, 0xc9, 0x0c, 0xf4, 0xff, 0xff,
  0x10, 0xf4, 0xff, 0xff, 0x14, 0xf4, 0xff, 0xff, 0x18, 0xf4, 0xff, 0xff,
  0xb2, 0xfd, 0xff, 0xff, 0x04, 0x00, 0x00, 0x00, 0x20, 0x00, 0x00, 0x00,
  0x9b, 0xff, 0xff, 0xff, 0x0d, 0xff, 0xff, 0xff, 0x89, 0xfe, 0xff, 0xff,
  0xe5, 0xfe, 0xff, 0xff, 0x75, 0x00, 0x00, 0x00, 0x50, 0xff, 0xff, 0xff,
  0x1e, 0xfe, 0xff, 0xff, 0x56, 0x00, 0x00, 0x00, 0xde, 0xfd, 0xff, 0xff,
  0x04, 0x00, 0x00, 0x00, 0x00, 0x02, 0x00, 0x00, 0x7f, 0xf8, 0xec, 0xac,
  0x31, 0x01, 0xd1, 0xb1, 0x3f, 0xfc, 0x15, 0xd1, 0x13, 0x26, 0xcf, 0xb7,
  0x19, 0x12, 0xf5, 0x06, 0xdc, 0xf1, 0xe4, 0x1d, 0x2c, 0xfd, 0x17, 0xdd,
  0x03, 0x18, 0xf8, 0xe5, 0x26, 0x00, 0x02, 0xde, 0xf9, 0x44, 0x09, 0xd4,
  0x34, 0xf8, 0x07, 0xec, 0xe4, 0x12, 0x06, 0xce, 0x36, 0x01, 0x07, 0xbd,
  0x41, 0x12, 0x07, 0xc1, 0x75, 0x03, 0x0c, 0xce, 0xe9, 0x1a, 0xd6, 0xc2,
  0x0d, 0x88, 0x28, 0x47, 0xe1, 0x07, 0xf7, 0xef, 0x01, 0x8b, 0x31, 0x41,
  0xe9, 0xfb, 0x14, 0xf2, 0xff, 0x84, 0x4c, 0x0d, 0xde, 0x0e, 0x06, 0xed,
  0x10, 0x98, 0x06, 0x14, 0xf9, 0x0f, 0x05, 0x09, 0x1c, 0x81, 0x03, 0xf7,
  0xe6, 0x1b, 0x09, 0x19, 0x0e, 0x85, 0x47, 0xf8, 0xea, 0xe1, 0xfa, 0x0f,
  0x03, 0x86, 0x50, 0x23, 0xd4, 0x0c, 0x0e, 0xe6, 0xf7, 0x82, 0x26, 0x54,
  0xd2, 0xfe, 0x06, 0x01, 0xc5, 0xe9, 0x26, 0x1e, 0x28, 0x42, 0x0b, 0x3b,
  0x91, 0xd3, 0xe2, 0x1d, 0x10, 0xfa, 0x1a, 0xec, 0x81, 0xb5, 0xaa, 0xb3,
  0xad, 0xcf, 0xd1, 0xc4, 0xf1, 0x36, 0x37, 0x5c, 0x27, 0x01, 0x23, 0xfe,
  0xeb, 0x0b, 0x33, 0x37, 0x30, 0xf5, 0xff, 0x0e, 0x94, 0xd5, 0xd9, 0xb8,
  0xd7, 0xdb, 0xe6, 0xf6, 0xad, 0xcf, 0x00, 0xf3, 0xea, 0x26, 0x12, 0x1a,
  0x96, 0x8d, 0x08, 0xe3, 0x37, 0x14, 0x0d, 0x14, 0xa6, 0x81, 0xaf, 0xb1,
  0x94, 0xbd, 0xca, 0xce, 0xc8, 0xa1, 0xb7, 0xe0, 0xea, 0xea, 0xeb, 0xfb,
  0x24, 0x42, 0x44, 0x1d, 0x4b, 0x45, 0x0c, 0x01, 0x54, 0x5f, 0x34, 0x56,
  0x18, 0x43, 0x49, 0x1a, 0x39, 0x64, 0x60, 0x57, 0x4d, 0x11, 0xf4, 0x3b,
  0x07, 0x0f, 0x30, 0x06, 0x06, 0x12, 0x27, 0x1d, 0xe5, 0xcf, 0xd8, 0xb4,
  0xd5, 0xd8, 0xdf, 0xf4, 0xc5, 0x8d, 0xb0, 0xc0, 0xb5, 0xb3, 0xba, 0xd8,
  0xd0, 0x1b, 0xef, 0x51, 0x3e, 0xdf, 0x19, 0xb9, 0x23, 0x7f, 0xf9, 0xfe,
  0x05, 0x59, 0x03, 0xce, 0xeb, 0x44, 0xf1, 0x25, 0x03, 0xf7, 0x0f, 0x00,
  0xf9, 0xc5, 0xad, 0x10, 0xf0, 0xda, 0x06, 0xd8, 0x15, 0x1a, 0xde, 0x11,
  0x0e, 0xe1, 0xfb, 0xff, 0xe3, 0x24, 0x00, 0xf8, 0x12, 0x0f, 0xe0, 0xf9,
  0x10, 0x1e, 0xf3, 0x28, 0x0a, 0xd7, 0x0a, 0xc5, 0xe9, 0x66, 0xe3, 0x1a,
  0x18, 0x13, 0x00, 0xdc, 0xbc, 0xde, 0xd0, 0xc0, 0xfb, 0x4a, 0x5a, 0xc5,
  0xb2, 0x01, 0xee, 0x81, 0xce, 0x4a, 0x26, 0x18, 0x0a, 0x26, 0x3f, 0xe3,
  0xc7, 0x0c, 0x1c, 0xe7, 0x06, 0x35, 0x30, 0xe5, 0xd2, 0x24, 0x12, 0x0d,
  0x10, 0x56, 0xfe, 0xf6, 0xea, 0x10, 0x1c, 0xe5, 0xf7, 0x0d, 0x2a, 0xdc,
  0xcd, 0x57, 0x1a, 0x14, 0xce, 0xfa, 0x14, 0xdd, 0xc6, 0x58, 0x45, 0xeb,
  0xa7, 0xd6, 0xd2, 0x99, 0xdf, 0x50, 0x4a, 0xf6, 0x01, 0x54, 0x15, 0x40,
  0x81, 0x9d, 0x93, 0x29, 0xfd, 0x3f, 0x31, 0x13, 0xa7, 0xc3, 0xbe, 0xfb,
  0xfd, 0x0f, 0x36, 0x17, 0xc0, 0xa2, 0xc6, 0xfd, 0x06, 0xf0, 0x06, 0x34,
  0xb0, 0xc9, 0xe0, 0x12, 0xfd, 0x20, 0x0a, 0x03, 0xc1, 0xae, 0xd4, 0xdd,
  0x05, 0x21, 0x25, 0xeb, 0x98, 0xc5, 0xc2, 0xf3, 0xee, 0x3b, 0x2f, 0x0d,
  0xa9, 0xc1, 0xf4, 0xec, 0xec, 0x23, 0x6d, 0xdc, 0xa1, 0xb8, 0xab, 0x45,
  0x8b, 0x04, 0x22, 0x0e, 0x1d, 0x04, 0x1a, 0x45, 0x81, 0x02, 0x1d, 0x19,
  0x18, 0x2e, 0x0f, 0x16, 0xa7, 0xf2, 0x0a, 0x1c, 0x15, 0x18, 0x16, 0xf5,
  0xbb, 0xf1, 0x0b, 0x0b, 0x20, 0xf2, 0x17, 0xff, 0xd6, 0xeb, 0x0b, 0x22,
  0x0e, 0x2b, 0x26, 0x09, 0xb6, 0xf6, 0x1f, 0x02, 0x1b, 0xd1, 0x14, 0xf4,
  0xc3, 0xfd, 0x29, 0x06, 0x03, 0x1e, 0xef, 0x42, 0x9d, 0xb7, 0xf4, 0x2d,
  0x33, 0x40, 0x1f, 0x3c, 0xea, 0xff, 0xff, 0xff, 0x04, 0x00, 0x00, 0x00,
  0x08, 0x00, 0x00, 0x00, 0xff, 0xff, 0xff, 0xff, 0x20, 0x01, 0x00, 0x00,
  0x00, 0x00, 0x06, 0x00, 0x08, 0x00, 0x04, 0x00, 0x06, 0x00, 0x00, 0x00,
  0x04, 0x00, 0x00, 0x00, 0x08, 0x00, 0x00, 0x00, 0x20, 0x00, 0x00, 0x00,
  0x20, 0x00, 0x00, 0x00, 0x84, 0xf6, 0xff, 0xff, 0x88, 0xf6, 0xff, 0xff,
  0x0f, 0x00, 0x00, 0x00, 0x4d, 0x4c, 0x49, 0x52, 0x20, 0x43, 0x6f, 0x6e,
  0x76, 0x65, 0x72, 0x74, 0x65, 0x64, 0x2e, 0x00, 0x01, 0x00, 0x00, 0x00,
  0x14, 0x00, 0x00, 0x00, 0x00, 0x00, 0x0e, 0x00, 0x18, 0x00, 0x14, 0x00,
  0x10, 0x00, 0x0c, 0x00, 0x08, 0x00, 0x04, 0x00, 0x0e, 0x00, 0x00, 0x00,
  0x14, 0x00, 0x00, 0x00, 0x1c, 0x00, 0x00, 0x00, 0xb0, 0x01, 0x00, 0x00,
  0xb4, 0x01, 0x00, 0x00, 0xb8, 0x01, 0x00, 0x00, 0x04, 0x00, 0x00, 0x00,
  0x6d, 0x61, 0x69, 0x6e, 0x00, 0x00, 0x00, 0x00, 0x06, 0x00, 0x00, 0x00,
  0x5c, 0x01, 0x00, 0x00, 0xf8, 0x00, 0x00, 0x00, 0x94, 0x00, 0x00, 0x00,
  0x6c, 0x00, 0x00, 0x00, 0x28, 0x00, 0x00, 0x00, 0x04, 0x00, 0x00, 0x00,
  0xaa, 0xff, 0xff, 0xff, 0x0c, 0x00, 0x00, 0x00, 0x10, 0x00, 0x00, 0x00,
  0x05, 0x00, 0x00, 0x00, 0x01, 0x00, 0x00, 0x00, 0x0c, 0x00, 0x00, 0x00,
  0x01, 0x00, 0x00, 0x00, 0x0b, 0x00, 0x00, 0x00, 0x4a, 0xff, 0xff, 0xff,
  0x14, 0x00, 0x00, 0x00, 0x00, 0x00, 0x00, 0x08, 0x10, 0x00, 0x00, 0x00,
  0x14, 0x00, 0x00, 0x00, 0x04, 0x00, 0x00, 0x00, 0x30, 0xf7, 0xff, 0xff,
  0x01, 0x00, 0x00, 0x00, 0x0b, 0x00, 0x00, 0x00, 0x03, 0x00, 0x00, 0x00,
  0x08, 0x00, 0x00, 0x00, 0x09, 0x00, 0x00, 0x00, 0x0a, 0x00, 0x00, 0x00,
  0x00, 0x00, 0x0a, 0x00, 0x10, 0x00, 0x0c, 0x00, 0x08, 0x00, 0x04, 0x00,
  0x0a, 0x00, 0x00, 0x00, 0x0c, 0x00, 0x00, 0x00, 0x10, 0x00, 0x00, 0x00,
  0x03, 0x00, 0x00, 0x00, 0x01, 0x00, 0x00, 0x00, 0x08, 0x00, 0x00, 0x00,
  0x02, 0x00, 0x00, 0x00, 0x07, 0x00, 0x00, 0x00, 0x02, 0x00, 0x00, 0x00,
  0xae, 0xff, 0xff, 0xff, 0x24, 0x00, 0x00, 0x00, 0x00, 0x00, 0x00, 0x05,
  0x34, 0x00, 0x00, 0x00, 0x38, 0x00, 0x00, 0x00, 0x02, 0x00, 0x00, 0x00,
  0x00, 0x00, 0x0e, 0x00, 0x18, 0x00, 0x17, 0x00, 0x10, 0x00, 0x0c, 0x00,
  0x08, 0x00, 0x04, 0x00, 0x0e, 0x00, 0x00, 0x00, 0x02, 0x00, 0x00, 0x00,
  0x02, 0x00, 0x00, 0x00, 0x02, 0x00, 0x00, 0x00, 0x02, 0x00, 0x00, 0x00,
  0x00, 0x00, 0x00, 0x01, 0x01, 0x00, 0x00, 0x00, 0x07, 0x00, 0x00, 0x00,
  0x01, 0x00, 0x00, 0x00, 0x06, 0x00, 0x00, 0x00, 0x00, 0x00, 0x0e, 0x00,
  0x18, 0x00, 0x14, 0x00, 0x10, 0x00, 0x0c, 0x00, 0x0b, 0x00, 0x04, 0x00,
  0x0e, 0x00, 0x00, 0x00, 0x20, 0x00, 0x00, 0x00, 0x00, 0x00, 0x00, 0x01,
  0x2c, 0x00, 0x00, 0x00, 0x30, 0x00, 0x00, 0x00, 0x01, 0x00, 0x00, 0x00,
  0x0c, 0x00, 0x14, 0x00, 0x13, 0x00, 0x0c, 0x00, 0x08, 0x00, 0x07, 0x00,
  0x0c, 0x00, 0x00, 0x00, 0x00, 0x00, 0x00, 0x01, 0x02, 0x00, 0x00, 0x00,
  0x02, 0x00, 0x00, 0x00, 0x00, 0x00, 0x00, 0x01, 0x01, 0x00, 0x00, 0x00,
  0x06, 0x00, 0x00, 0x00, 0x03, 0x00, 0x00, 0x00, 0x05, 0x00, 0x00, 0x00,
  0x03, 0x00, 0x00, 0x00, 0x04, 0x00, 0x00, 0x00, 0x00, 0x00, 0x0e, 0x00,
  0x14, 0x00, 0x00, 0x00, 0x10, 0x00, 0x0c, 0x00, 0x0b, 0x00, 0x04, 0x00,
  0x0e, 0x00, 0x00, 0x00, 0x18, 0x00, 0x00, 0x00, 0x00, 0x00, 0x00, 0x4a,
  0x18, 0x00, 0x00, 0x00, 0x1c, 0x00, 0x00, 0x00, 0x08, 0x00, 0x08, 0x00,
  0x00, 0x00, 0x07, 0x00, 0x08, 0x00, 0x00, 0x00, 0x00, 0x00, 0x00, 0x01,
  0x01, 0x00, 0x00, 0x00, 0x05, 0x00, 0x00, 0x00, 0x02, 0x00, 0x00, 0x00,
  0x00, 0x00, 0x00, 0x00, 0x01, 0x00, 0x00, 0x00, 0x01, 0x00, 0x00, 0x00,
  0x0c, 0x00, 0x00, 0x00, 0x01, 0x00, 0x00, 0x00, 0x00, 0x00, 0x00, 0x00,
  0x0d, 0x00, 0x00, 0x00, 0xc0, 0x07, 0x00, 0x00, 0x5c, 0x07, 0x00, 0x00,
  0x08, 0x07, 0x00, 0x00, 0xf8, 0x05, 0x00, 0x00, 0xd4, 0x04, 0x00, 0x00,
  0x38, 0x04, 0x00, 0x00, 0x3c, 0x03, 0x00, 0x00, 0xb0, 0x02, 0x00, 0x00,
  0x3c, 0x02, 0x00, 0x00, 0x90, 0x01, 0x00, 0x00, 0x0c, 0x01, 0x00, 0x00,
  0x70, 0x00, 0x00, 0x00, 0x04, 0x00, 0x00, 0x00, 0x88, 0xf8, 0xff, 0xff,
  0x18, 0x00, 0x00, 0x00, 0x20, 0x00, 0x00, 0x00, 0x40, 0x00, 0x00, 0x00,
  0x0d, 0x00, 0x00, 0x00, 0x00, 0x00, 0x00, 0x09, 0x44, 0x00, 0x00, 0x00,
  0x02, 0x00, 0x00, 0x00, 0xff, 0xff, 0xff, 0xff, 0x01, 0x00, 0x00, 0x00,
  0x6c, 0xf8, 0xff, 0xff, 0x08, 0x00, 0x00, 0x00, 0x14, 0x00, 0x00, 0x00,
  0x01, 0x00, 0x00, 0x00, 0x80, 0xff, 0xff, 0xff, 0xff, 0xff, 0xff, 0xff,
  0x00, 0x00, 0x00, 0x00, 0x01, 0x00, 0x00, 0x00, 0x00, 0x00, 0x80, 0x3b,
  0x08, 0x00, 0x00, 0x00, 0x49, 0x64, 0x65, 0x6e, 0x74, 0x69, 0x74, 0x79,
  0x00, 0x00, 0x00, 0x00, 0x02, 0x00, 0x00, 0x00, 0x01, 0x00, 0x00, 0x00,
  0x01, 0x00, 0x00, 0x00, 0xf0, 0xf8, 0xff, 0xff, 0x18, 0x00, 0x00, 0x00,
  0x20, 0x00, 0x00, 0x00, 0x40, 0x00, 0x00, 0x00, 0x0c, 0x00, 0x00, 0x00,
  0x00, 0x00, 0x00, 0x09, 0x74, 0x00, 0x00, 0x00, 0x02, 0x00, 0x00, 0x00,
  0xff, 0xff, 0xff, 0xff, 0x01, 0x00, 0x00, 0x00, 0xd4, 0xf8, 0xff, 0xff,
  0x08, 0x00, 0x00, 0x00, 0x14, 0x00, 0x00, 0x00, 0x01, 0x00, 0x00, 0x00,
  0xfd, 0xff, 0xff, 0xff, 0xff, 0xff, 0xff, 0xff, 0x00, 0x00, 0x00, 0x00,
  0x01, 0x00, 0x00, 0x00, 0xbf, 0xb6, 0x86, 0x3d, 0x3a, 0x00, 0x00, 0x00,
  0x6d, 0x6f, 0x64, 0x65, 0x6c, 0x5f, 0x31, 0x2f, 0x71, 0x75, 0x61, 0x6e,
  0x74, 0x5f, 0x64, 0x65, 0x6e, 0x73, 0x65, 0x5f, 0x31, 0x2f, 0x4d, 0x61,
  0x74, 0x4d, 0x75, 0x6c, 0x3b, 0x6d, 0x6f, 0x64, 0x65, 0x6c, 0x5f, 0x31,
  0x2f, 0x71, 0x75, 0x61, 0x6e, 0x74, 0x5f, 0x64, 0x65, 0x6e, 0x73, 0x65,
  0x5f, 0x31, 0x2f, 0x42, 0x69, 0x61, 0x73, 0x41, 0x64, 0x64, 0x00, 0x00,
  0x02, 0x00, 0x00, 0x00, 0x01, 0x00, 0x00, 0x00, 0x01, 0x00, 0x00, 0x00,
  0xe2, 0xf9, 0xff, 0xff, 0x14, 0x00, 0x00, 0x00, 0x34, 0x00, 0x00, 0x00,
  0x0b, 0x00, 0x00, 0x00, 0x00, 0x00, 0x00, 0x02, 0x64, 0x00, 0x00, 0x00,
  0x5c, 0xf9, 0xff, 0xff, 0x08, 0x00, 0x00, 0x00, 0x14, 0x00, 0x00, 0x00,
  0x01, 0x00, 0x00, 0x00, 0x00, 0x00, 0x00, 0x00, 0x00, 0x00, 0x00, 0x00,
  0x00, 0x00, 0x00, 0x00, 0x01, 0x00, 0x00, 0x00, 0x88, 0x6b, 0xbd, 0x39,
  0x35, 0x00, 0x00, 0x00, 0x6d, 0x6f, 0x64, 0x65, 0x6c, 0x5f, 0x31, 0x2f,
  0x71, 0x75, 0x61, 0x6e, 0x74, 0x5f, 0x64, 0x65, 0x6e, 0x73, 0x65, 0x5f,
  0x31, 0x2f, 0x42, 0x69, 0x61, 0x73, 0x41, 0x64, 0x64, 0x2f, 0x52, 0x65,
  0x61, 0x64, 0x56, 0x61, 0x72, 0x69, 0x61, 0x62, 0x6c, 0x65, 0x4f, 0x70,
  0x2f, 0x72, 0x65, 0x73, 0x6f, 0x75, 0x72, 0x63, 0x65, 0x00, 0x00, 0x00,
  0x01, 0x00, 0x00, 0x00, 0x01, 0x00, 0x00, 0x00, 0x62, 0xfa, 0xff, 0xff,
  0x14, 0x00, 0x00, 0x00, 0x34, 0x00, 0x00, 0x00, 0x0a, 0x00, 0x00, 0x00,
  0x00, 0x00, 0x00, 0x09, 0x88, 0x00, 0x00, 0x00, 0xdc, 0xf9, 0xff, 0xff,
  0x08, 0x00, 0x00, 0x00, 0x14, 0x00, 0x00, 0x00, 0x01, 0x00, 0x00, 0x00,
  0x00, 0x00, 0x00, 0x00, 0x00, 0x00, 0x00, 0x00, 0x00, 0x00, 0x00, 0x00,
  0x01, 0x00, 0x00, 0x00, 0x0a, 0xee, 0xe0, 0x3b, 0x59, 0x00, 0x00, 0x00,
  0x6d, 0x6f, 0x64, 0x65, 0x6c, 0x5f, 0x31, 0x2f, 0x71, 0x75, 0x61, 0x6e,
  0x74, 0x5f, 0x64, 0x65, 0x6e, 0x73, 0x65, 0x5f, 0x31, 0x2f, 0x4d, 0x61,
  0x74, 0x4d, 0x75, 0x6c, 0x3b, 0x6d, 0x6f, 0x64, 0x65, 0x6c, 0x5f, 0x31,
  0x2f, 0x71, 0x75, 0x61, 0x6e, 0x74, 0x5f, 0x64, 0x65, 0x6e, 0x73, 0x65,
  0x5f, 0x31, 0x2f, 0x4c, 0x61, 0x73, 0x74, 0x56, 0x61, 0x6c, 0x75, 0x65,
  0x51, 0x75, 0x61, 0x6e, 0x74, 0x2f, 0x46, 0x61, 0x6b, 0x65, 0x51, 0x75,
  0x61, 0x6e, 0x74, 0x57, 0x69, 0x74, 0x68, 0x4d, 0x69, 0x6e, 0x4d, 0x61,
  0x78, 0x56, 0x61, 0x72, 0x73, 0x00, 0x00, 0x00, 0x02, 0x00, 0x00, 0x00,
  0x01, 0x00, 0x00, 0x00, 0x20, 0x01, 0x00, 0x00, 0xb0, 0xfa, 0xff, 0xff,
  0x18, 0x00, 0x00, 0x00, 0x20, 0x00, 0x00, 0x00, 0x3c, 0x00, 0x00, 0x00,
  0x09, 0x00, 0x00, 0x00, 0x00, 0x00, 0x00, 0x09, 0x4c, 0x00, 0x00, 0x00,
  0x02, 0x00, 0x00, 0x00, 0xff, 0xff, 0xff, 0xff, 0x20, 0x01, 0x00, 0x00,
  0x94, 0xfa, 0xff, 0xff, 0x08, 0x00, 0x00, 0x00, 0x10, 0x00, 0x00, 0x00,
  0x01, 0x00, 0x00, 0x00, 0xeb, 0xff, 0xff, 0xff, 0xff, 0xff, 0xff, 0xff,
  0x01, 0x00, 0x00, 0x00, 0xcc, 0x95, 0x57, 0x3d, 0x17, 0x00, 0x00, 0x00,
  0x6d, 0x6f, 0x64, 0x65, 0x6c, 0x5f, 0x31, 0x2f, 0x66, 0x6c, 0x61, 0x74,
  0x74, 0x65, 0x6e, 0x2f, 0x52, 0x65, 0x73, 0x68, 0x61, 0x70, 0x65, 0x00,
  0x02, 0x00, 0x00, 0x00, 0x01, 0x00, 0x00, 0x00, 0x20, 0x01, 0x00, 0x00,
  0x20, 0xfb, 0xff, 0xff, 0x18, 0x00, 0x00, 0x00, 0x28, 0x00, 0x00, 0x00,
  0x44, 0x00, 0x00, 0x00, 0x08, 0x00, 0x00, 0x00, 0x00, 0x00, 0x00, 0x09,
  0x5c, 0x00, 0x00, 0x00, 0x04, 0x00, 0x00, 0x00, 0xff, 0xff, 0xff, 0xff,
  0x06, 0x00, 0x00, 0x00, 0x06, 0x00, 0x00, 0x00, 0x08, 0x00, 0x00, 0x00,
  0x0c, 0xfb, 0xff, 0xff, 0x08, 0x00, 0x00, 0x00, 0x10, 0x00, 0x00, 0x00,
  0x01, 0x00, 0x00, 0x00, 0xeb, 0xff, 0xff, 0xff, 0xff, 0xff, 0xff, 0xff,
  0x01, 0x00, 0x00, 0x00, 0xcc, 0x95, 0x57, 0x3d, 0x1d, 0x00, 0x00, 0x00,
  0x6d, 0x6f, 0x64, 0x65, 0x6c, 0x5f, 0x31, 0x2f, 0x6d, 0x61, 0x78, 0x5f,
  0x70, 0x6f, 0x6f, 0x6c, 0x69, 0x6e, 0x67, 0x32, 0x64, 0x2f, 0x4d, 0x61,
  0x78, 0x50, 0x6f, 0x6f, 0x6c, 0x00, 0x00, 0x00, 0x04, 0x00, 0x00, 0x00,
  0x01, 0x00, 0x00, 0x00, 0x06, 0x00, 0x00, 0x00, 0x06, 0x00, 0x00, 0x00,
  0x08, 0x00, 0x00, 0x00, 0xa8, 0xfb, 0xff, 0xff, 0x18, 0x00, 0x00, 0x00,
  0x28, 0x00, 0x00, 0x00, 0x48, 0x00, 0x00, 0x00, 0x07, 0x00, 0x00, 0x00,
  0x00, 0x00, 0x00, 0x09, 0xcc, 0x00, 0x00, 0x00, 0x04, 0x00, 0x00, 0x00,
  0xff, 0xff, 0xff, 0xff, 0x0d, 0x00, 0x00, 0x00, 0x0d, 0x00, 0x00, 0x00,
  0x08, 0x00, 0x00, 0x00, 0x94, 0xfb, 0xff, 0xff, 0x08, 0x00, 0x00, 0x00,
  0x14, 0x00, 0x00, 0x00, 0x01, 0x00, 0x00, 0x00, 0xeb, 0xff, 0xff, 0xff,
  0xff, 0xff, 0xff, 0xff, 0x00, 0x00, 0x00, 0x00, 0x01, 0x00, 0x00, 0x00,
  0xcc, 0x95, 0x57, 0x3d, 0x88, 0x00, 0x00, 0x00, 0x6d, 0x6f, 0x64, 0x65,
  0x6c, 0x5f, 0x31, 0x2f, 0x71, 0x75, 0x61, 0x6e, 0x74, 0x5f, 0x63, 0x6f,
  0x6e, 0x76, 0x32, 0x64, 0x2f, 0x52, 0x65, 0x6c, 0x75, 0x3b, 0x6d, 0x6f,
  0x64, 0x65, 0x6c, 0x5f, 0x31, 0x2f, 0x71, 0x75, 0x61, 0x6e, 0x74, 0x5f,
  0x63, 0x6f, 0x6e, 0x76, 0x32, 0x64, 0x2f, 0x42, 0x69, 0x61, 0x73, 0x41,
  0x64, 0x64, 0x3b, 0x6d, 0x6f, 0x64, 0x65, 0x6c, 0x5f, 0x31, 0x2f, 0x71,
  0x75, 0x61, 0x6e, 0x74, 0x5f, 0x63, 0x6f, 0x6e, 0x76, 0x32, 0x64, 0x2f,
  0x43, 0x6f, 0x6e, 0x76, 0x32, 0x44, 0x3b, 0x6d, 0x6f, 0x64, 0x65, 0x6c,
  0x5f, 0x31, 0x2f, 0x71, 0x75, 0x61, 0x6e, 0x74, 0x5f, 0x63, 0x6f, 0x6e,
  0x76, 0x32, 0x64, 0x2f, 0x42, 0x69, 0x61, 0x73, 0x41, 0x64, 0x64, 0x2f,
  0x52, 0x65, 0x61, 0x64, 0x56, 0x61, 0x72, 0x69, 0x61, 0x62, 0x6c, 0x65,
  0x4f, 0x70, 0x2f, 0x72, 0x65, 0x73, 0x6f, 0x75, 0x72, 0x63, 0x65, 0x31,
  0x00, 0x00, 0x00, 0x00, 0x04, 0x00, 0x00, 0x00, 0x01, 0x00, 0x00, 0x00,
  0x0d, 0x00, 0x00, 0x00, 0x0d, 0x00, 0x00, 0x00, 0x08, 0x00, 0x00, 0x00,
  0xa0, 0xfc, 0xff, 0xff, 0x18, 0x00, 0x00, 0x00, 0x28, 0x00, 0x00, 0x00,
  0x44, 0x00, 0x00, 0x00, 0x06, 0x00, 0x00, 0x00, 0x00, 0x00, 0x00, 0x09,
  0x6c, 0x00, 0x00, 0x00, 0x04, 0x00, 0x00, 0x00, 0xff, 0xff, 0xff, 0xff,
  0x20, 0x00, 0x00, 0x00, 0x20, 0x00, 0x00, 0x00, 0x01, 0x00, 0x00, 0x00,
  0x8c, 0xfc, 0xff, 0xff, 0x08, 0x00, 0x00, 0x00, 0x10, 0x00, 0x00, 0x00,
  0x01, 0x00, 0x00, 0x00, 0x80, 0xff, 0xff, 0xff, 0xff, 0xff, 0xff, 0xff,
  0x01, 0x00, 0x00, 0x00, 0x03, 0x03, 0xe3, 0x3e, 0x2d, 0x00, 0x00, 0x00,
  0x6d, 0x6f, 0x64, 0x65, 0x6c, 0x5f, 0x31, 0x2f, 0x72, 0x65, 0x73, 0x69,
  0x7a, 0x69, 0x6e, 0x67, 0x2f, 0x72, 0x65, 0x73, 0x69, 0x7a, 0x65, 0x2f,
  0x52, 0x65, 0x73, 0x69, 0x7a, 0x65, 0x4e, 0x65, 0x61, 0x72, 0x65, 0x73,
  0x74, 0x4e, 0x65, 0x69, 0x67, 0x68, 0x62, 0x6f, 0x72, 0x00, 0x00, 0x00,
  0x04, 0x00, 0x00, 0x00, 0x01, 0x00, 0x00, 0x00, 0x20, 0x00, 0x00, 0x00,
  0x20, 0x00, 0x00, 0x00, 0x01, 0x00, 0x00, 0x00, 0x92, 0xfd, 0xff, 0xff,
  0x14, 0x00, 0x00, 0x00, 0x84, 0x00, 0x00, 0x00, 0x05, 0x00, 0x00, 0x00,
  0x00, 0x00, 0x00, 0x02, 0x04, 0x01, 0x00, 0x00, 0x0c, 0xfd, 0xff, 0xff,
  0x08, 0x00, 0x00, 0x00, 0x48, 0x00, 0x00, 0x00, 0x08, 0x00, 0x00, 0x00,
  0x00, 0x00, 0x00, 0x00, 0x00, 0x00, 0x00, 0x00, 0x00, 0x00, 0x00, 0x00,
  0x00, 0x00, 0x00, 0x00, 0x00, 0x00, 0x00, 0x00, 0x00, 0x00, 0x00, 0x00,
  0x00, 0x00, 0x00, 0x00, 0x00, 0x00, 0x00, 0x00, 0x00, 0x00, 0x00, 0x00,
  0x00, 0x00, 0x00, 0x00, 0x00, 0x00, 0x00, 0x00, 0x00, 0x00, 0x00, 0x00,
  0x00, 0x00, 0x00, 0x00, 0x00, 0x00, 0x00, 0x00, 0x00, 0x00, 0x00, 0x00,
  0x00, 0x00, 0x00, 0x00, 0x08, 0x00, 0x00, 0x00, 0xa0, 0xed, 0x84, 0x3a,
  0x61, 0x5f, 0x15, 0x3b, 0x8e, 0x36, 0x10, 0x3b, 0x15, 0x03, 0xe3, 0x3a,
  0x73, 0x57, 0x9e, 0x3a, 0x32, 0x52, 0xfb, 0x3a, 0xda, 0x85, 0xbe, 0x3a,
  0x0f, 0xef, 0x02, 0x3b, 0x87, 0x00, 0x00, 0x00, 0x6d, 0x6f, 0x64, 0x65,
  0x6c, 0x5f, 0x31, 0x2f, 0x71, 0x75, 0x61, 0x6e, 0x74, 0x5f, 0x63, 0x6f,
  0x6e, 0x76, 0x32, 0x64, 0x2f, 0x52, 0x65, 0x6c, 0x75, 0x3b, 0x6d, 0x6f,
  0x64, 0x65, 0x6c, 0x5f, 0x31, 0x2f, 0x71, 0x75, 0x61, 0x6e, 0x74, 0x5f,
  0x63, 0x6f, 0x6e, 0x76, 0x32, 0x64, 0x2f, 0x42, 0x69, 0x61, 0x73, 0x41,
  0x64, 0x64, 0x3b, 0x6d, 0x6f, 0x64, 0x65, 0x6c, 0x5f, 0x31, 0x2f, 0x71,
  0x75, 0x61, 0x6e, 0x74, 0x5f, 0x63, 0x6f, 0x6e, 0x76, 0x32, 0x64, 0x2f,
  0x43, 0x6f, 0x6e, 0x76, 0x32, 0x44, 0x3b, 0x6d, 0x6f, 0x64, 0x65, 0x6c,
  0x5f, 0x31, 0x2f, 0x71, 0x75, 0x61, 0x6e, 0x74, 0x5f, 0x63, 0x6f, 0x6e,
  0x76, 0x32, 0x64, 0x2f, 0x42, 0x69, 0x61, 0x73, 0x41, 0x64, 0x64, 0x2f,
  0x52, 0x65, 0x61, 0x64, 0x56, 0x61, 0x72, 0x69, 0x61, 0x62, 0x6c, 0x65,
  0x4f, 0x70, 0x2f, 0x72, 0x65, 0x73, 0x6f, 0x75, 0x72, 0x63, 0x65, 0x00,
  0x01, 0x00, 0x00, 0x00, 0x08, 0x00, 0x00, 0x00, 0xb2, 0xfe, 0xff, 0xff,
  0x14, 0x00, 0x00, 0x00, 0x88, 0x00, 0x00, 0x00, 0x04, 0x00, 0x00, 0x00,
  0x00, 0x00, 0x00, 0x09, 0xe4, 0x00, 0x00, 0x00, 0x2c, 0xfe, 0xff, 0xff,
  0x08, 0x00, 0x00, 0x00, 0x4c, 0x00, 0x00, 0x00, 0x08, 0x00, 0x00, 0x00,
  0x00, 0x00, 0x00, 0x00, 0x00, 0x00, 0x00, 0x00, 0x00, 0x00, 0x00, 0x00,
  0x00, 0x00, 0x00, 0x00, 0x00, 0x00, 0x00, 0x00, 0x00, 0x00, 0x00, 0x00,
  0x00, 0x00, 0x00, 0x00, 0x00, 0x00, 0x00, 0x00, 0x00, 0x00, 0x00, 0x00,
  0x00, 0x00, 0x00, 0x00, 0x00, 0x00, 0x00, 0x00, 0x00, 0x00, 0x00, 0x00,
  0x00, 0x00, 0x00, 0x00, 0x00, 0x00, 0x00, 0x00, 0x00, 0x00, 0x00, 0x00,
  0x00, 0x00, 0x00, 0x00, 0x00, 0x00, 0x00, 0x00, 0x08, 0x00, 0x00, 0x00,
  0x09, 0xe7, 0x15, 0x3b, 0x5a, 0x72, 0xa8, 0x3b, 0xdd, 0xa0, 0xa2, 0x3b,
  0x0a, 0x00, 0x80, 0x3b, 0x9e, 0x8f, 0x32, 0x3b, 0xed, 0xb4, 0x8d, 0x3b,
  0x05, 0xda, 0x56, 0x3b, 0x45, 0xa7, 0x93, 0x3b, 0x61, 0x00, 0x00, 0x00,
  0x6d, 0x6f, 0x64, 0x65, 0x6c, 0x5f, 0x31, 0x2f, 0x71, 0x75, 0x61, 0x6e,
  0x74, 0x5f, 0x63, 0x6f, 0x6e, 0x76, 0x32, 0x64, 0x2f, 0x43, 0x6f, 0x6e,
  0x76, 0x32, 0x44, 0x3b, 0x6d, 0x6f, 0x64, 0x65, 0x6c, 0x5f, 0x31, 0x2f,
  0x71, 0x75, 0x61, 0x6e, 0x74, 0x5f, 0x63, 0x6f, 0x6e, 0x76, 0x32, 0x64,
  0x2f, 0x4c, 0x61, 0x73, 0x74, 0x56, 0x61, 0x6c, 0x75, 0x65, 0x51, 0x75,
  0x61, 0x6e, 0x74, 0x2f, 0x46, 0x61, 0x6b, 0x65, 0x51, 0x75, 0x61, 0x6e,
  0x74, 0x57, 0x69, 0x74, 0x68, 0x4d, 0x69, 0x6e, 0x4d, 0x61, 0x78, 0x56,
  0x61, 0x72, 0x73, 0x50, 0x65, 0x72, 0x43, 0x68, 0x61, 0x6e, 0x6e, 0x65,
  0x6c, 0x00, 0x00, 0x00, 0x04, 0x00, 0x00, 0x00, 0x08, 0x00, 0x00, 0x00,
  0x08, 0x00, 0x00, 0x00, 0x08, 0x00, 0x00, 0x00, 0x01, 0x00, 0x00, 0x00,
  0xbe, 0xff, 0xff, 0xff, 0x14, 0x00, 0x00, 0x00, 0x14, 0x00, 0x00, 0x00,
  0x03, 0x00, 0x00, 0x00, 0x00, 0x00, 0x00, 0x02, 0x24, 0x00, 0x00, 0x00,
  0xb0, 0xff, 0xff, 0xff, 0x15, 0x00, 0x00, 0x00, 0x6d, 0x6f, 0x64, 0x65,
  0x6c, 0x5f, 0x31, 0x2f, 0x66, 0x6c, 0x61, 0x74, 0x74, 0x65, 0x6e, 0x2f,
  0x43, 0x6f, 0x6e, 0x73, 0x74, 0x00, 0x00, 0x00, 0x01, 0x00, 0x00, 0x00,
  0x02, 0x00, 0x00, 0x00, 0x00, 0x00, 0x0e, 0x00, 0x18, 0x00, 0x14, 0x00,
  0x13, 0x00, 0x0c, 0x00, 0x08, 0x00, 0x04, 0x00, 0x0e, 0x00, 0x00, 0x00,
  0x18, 0x00, 0x00, 0x00, 0x18, 0x00, 0x00, 0x00, 0x02, 0x00, 0x00, 0x00,
  0x00, 0x00, 0x00, 0x02, 0x30, 0x00, 0x00, 0x00, 0x04, 0x00, 0x04, 0x00,
  0x04, 0x00, 0x00, 0x00, 0x1c, 0x00, 0x00, 0x00, 0x6d, 0x6f, 0x64, 0x65,
  0x6c, 0x5f, 0x31, 0x2f, 0x72, 0x65, 0x73, 0x69, 0x7a, 0x69, 0x6e, 0x67,
  0x2f, 0x72, 0x65, 0x73, 0x69, 0x7a, 0x65, 0x2f, 0x73, 0x69, 0x7a, 0x65,
  0x00, 0x00, 0x00, 0x00, 0x01, 0x00, 0x00, 0x00, 0x02, 0x00, 0x00, 0x00,
  0x14, 0x00, 0x1c, 0x00, 0x18, 0x00, 0x17, 0x00, 0x10, 0x00, 0x0c, 0x00,
  0x08, 0x00, 0x00, 0x00, 0x00, 0x00, 0x04, 0x00, 0x14, 0x00, 0x00, 0x00,
  0x18, 0x00, 0x00, 0x00, 0x34, 0x00, 0x00, 0x00, 0x50, 0x00, 0x00, 0x00,
  0x01, 0x00, 0x00, 0x00, 0x00, 0x00, 0x00, 0x09, 0x50, 0x00, 0x00, 0x00,
  0x04, 0x00, 0x00, 0x00, 0xff, 0xff, 0xff, 0xff, 0x7c, 0x00, 0x00, 0x00,
  0x81, 0x00, 0x00, 0x00, 0x01, 0x00, 0x00, 0x00, 0x0c, 0x00, 0x0c, 0x00,
  0x00, 0x00, 0x00, 0x00, 0x08, 0x00, 0x04, 0x00, 0x0c, 0x00, 0x00, 0x00,
  0x08, 0x00, 0x00, 0x00, 0x10, 0x00, 0x00, 0x00, 0x01, 0x00, 0x00, 0x00,
  0x80, 0xff, 0xff, 0xff, 0xff, 0xff, 0xff, 0xff, 0x01, 0x00, 0x00, 0x00,
  0x03, 0x03, 0xe3, 0x3e, 0x07, 0x00, 0x00, 0x00, 0x69, 0x6e, 0x70, 0x75,
  0x74, 0x5f, 0x31, 0x00, 0x04, 0x00, 0x00, 0x00, 0x01, 0x00, 0x00, 0x00,
  0x7c, 0x00, 0x00, 0x00, 0x81, 0x00, 0x00, 0x00, 0x01, 0x00, 0x00, 0x00,
  0x06, 0x00, 0x00, 0x00, 0x7c, 0x00, 0x00, 0x00, 0x5c, 0x00, 0x00, 0x00,
  0x48, 0x00, 0x00, 0x00, 0x38, 0x00, 0x00, 0x00, 0x18, 0x00, 0x00, 0x00,
  0x04, 0x00, 0x00, 0x00, 0xa8, 0xff, 0xff, 0xff, 0x0e, 0x00, 0x00, 0x00,
  0x02, 0x00, 0x00, 0x00, 0x00, 0x00, 0x00, 0x0e, 0xb8, 0xff, 0xff, 0xff,
  0x09, 0x00, 0x00, 0x00, 0x04, 0x00, 0x00, 0x00, 0x00, 0x00, 0x00, 0x09,
  0x0c, 0x00, 0x0c, 0x00, 0x0b, 0x00, 0x00, 0x00, 0x00, 0x00, 0x04, 0x00,
  0x0c, 0x00, 0x00, 0x00, 0x16, 0x00, 0x00, 0x00, 0x00, 0x00, 0x00, 0x16,
  0xe0, 0xff, 0xff, 0xff, 0x11, 0x00, 0x00, 0x00, 0x02, 0x00, 0x00, 0x00,
  0x00, 0x00, 0x00, 0x11, 0xf0, 0xff, 0xff, 0xff, 0x03, 0x00, 0x00, 0x00,
  0x03, 0x00, 0x00, 0x00, 0x00, 0x00, 0x00, 0x03, 0x0c, 0x00, 0x10, 0x00,
  0x0f, 0x00, 0x00, 0x00, 0x08, 0x00, 0x04, 0x00, 0x0c, 0x00, 0x00, 0x00,
  0x61, 0x00, 0x00, 0x00, 0x03, 0x00, 0x00, 0x00, 0x00, 0x00, 0x00, 0x61
};

#endif
